const unsigned char model_tflite[] = {28, 0, 0, 0, 84, 70, 76, 51, 20, 0, 32, 0, 28, 0, 24, 0, 20, 0, 16, 0, 12, 0, 0, 0, 8, 0, 4, 0, 20, 0, 0, 0, 28, 0, 0, 0, 152, 0, 0, 0, 24, 1, 0, 0, 216, 6, 0, 0, 232, 6, 0, 0, 220, 18, 0, 0, 3, 0, 0, 0, 1, 0, 0, 0, 16, 0, 0, 0, 0, 0, 10, 0, 16, 0, 12, 0, 8, 0, 4, 0, 10, 0, 0, 0, 12, 0, 0, 0, 28, 0, 0, 0, 60, 0, 0, 0, 15, 0, 0, 0, 115, 101, 114, 118, 105, 110, 103, 95, 100, 101, 102, 97, 117, 108, 116, 0, 1, 0, 0, 0, 4, 0, 0, 0, 104, 255, 255, 255, 10, 0, 0, 0, 4, 0, 0, 0, 8, 0, 0, 0, 111, 117, 116, 112, 117, 116, 95, 48, 0, 0, 0, 0, 1, 0, 0, 0, 4, 0, 0, 0, 14, 249, 255, 255, 4, 0, 0, 0, 12, 0, 0, 0, 107, 101, 114, 97, 115, 95, 116, 101, 110, 115, 111, 114, 0, 0, 0, 0, 3, 0, 0, 0, 92, 0, 0, 0, 44, 0, 0, 0, 4, 0, 0, 0, 184, 255, 255, 255, 14, 0, 0, 0, 4, 0, 0, 0, 19, 0, 0, 0, 67, 79, 78, 86, 69, 82, 83, 73, 79, 78, 95, 77, 69, 84, 65, 68, 65, 84, 65, 0, 220, 255, 255, 255, 13, 0, 0, 0, 4, 0, 0, 0, 19, 0, 0, 0, 109, 105, 110, 95, 114, 117, 110, 116, 105, 109, 101, 95, 118, 101, 114, 115, 105, 111, 110, 0, 8, 0, 12, 0, 8, 0, 4, 0, 8, 0, 0, 0, 12, 0, 0, 0, 4, 0, 0, 0, 19, 0, 0, 0, 109, 105, 110, 95, 114, 117, 110, 116, 105, 109, 101, 95, 118, 101, 114, 115, 105, 111, 110, 0, 15, 0, 0, 0, 188, 5, 0, 0, 180, 5, 0, 0, 132, 5, 0, 0, 244, 4, 0, 0, 164, 4, 0, 0, 148, 2, 0, 0, 4, 2, 0, 0, 212, 0, 0, 0, 204, 0, 0, 0, 196, 0, 0, 0, 188, 0, 0, 0, 180, 0, 0, 0, 148, 0, 0, 0, 116, 0, 0, 0, 4, 0, 0, 0, 238, 249, 255, 255, 4, 0, 0, 0, 96, 0, 0, 0, 12, 0, 0, 0, 8, 0, 14, 0, 8, 0, 4, 0, 8, 0, 0, 0, 16, 0, 0, 0, 40, 0, 0, 0, 0, 0, 6, 0, 8, 0, 4, 0, 6, 0, 0, 0, 4, 0, 0, 0, 1, 0, 0, 0, 235, 3, 0, 0, 12, 0, 24, 0, 20, 0, 16, 0, 12, 0, 4, 0, 12, 0, 0, 0, 129, 147, 40, 45, 134, 235, 75, 107, 2, 0, 0, 0, 2, 0, 0, 0, 4, 0, 0, 0, 6, 0, 0, 0, 50, 46, 49, 55, 46, 48, 0, 0, 90, 250, 255, 255, 4, 0, 0, 0, 16, 0, 0, 0, 0, 0, 0, 0, 0, 0, 0, 0, 0, 0, 0, 0, 0, 0, 0, 0, 118, 250, 255, 255, 4, 0, 0, 0, 16, 0, 0, 0, 49, 46, 49, 52, 46, 48, 0, 0, 0, 0, 0, 0, 0, 0, 0, 0, 96, 250, 255, 255, 100, 250, 255, 255, 104, 250, 255, 255, 108, 250, 255, 255, 162, 250, 255, 255, 4, 0, 0, 0, 32, 1, 0, 0, 31, 39, 127, 192, 198, 53, 17, 3, 18, 56, 228, 187, 173, 129, 50, 17, 227, 219, 233, 129, 205, 10, 54, 251, 66, 39, 227, 216, 217, 1, 129, 92, 244, 2, 246, 241, 224, 26, 212, 127, 116, 229, 214, 11, 230, 3, 14, 127, 27, 233, 248, 9, 7, 254, 87, 129, 223, 223, 210, 255, 9, 17, 8, 0, 189, 129, 123, 194, 227, 80, 203, 29, 39, 36, 127, 184, 42, 172, 14, 3, 31, 223, 208, 20, 129, 30, 6, 26, 4, 20, 250, 162, 199, 218, 127, 96, 216, 234, 3, 187, 129, 237, 227, 166, 211, 154, 20, 27, 101, 68, 44, 15, 127, 31, 27, 229, 55, 13, 251, 63, 127, 64, 242, 254, 231, 250, 8, 11, 3, 63, 225, 127, 2, 253, 247, 242, 6, 249, 129, 62, 215, 249, 246, 223, 44, 127, 68, 205, 124, 19, 218, 254, 2, 38, 83, 222, 127, 10, 151, 251, 54, 163, 216, 53, 191, 21, 129, 24, 255, 37, 248, 165, 205, 198, 127, 31, 246, 253, 160, 232, 224, 6, 129, 104, 113, 32, 22, 15, 7, 167, 88, 192, 199, 129, 91, 8, 38, 97, 14, 246, 127, 239, 227, 213, 251, 2, 247, 54, 45, 240, 129, 120, 28, 20, 248, 27, 63, 250, 166, 29, 127, 192, 217, 206, 254, 236, 229, 127, 120, 40, 47, 67, 7, 19, 129, 83, 62, 76, 9, 227, 11, 3, 23, 232, 231, 253, 18, 40, 129, 24, 89, 52, 22, 51, 129, 137, 186, 214, 252, 239, 253, 129, 32, 193, 55, 118, 40, 254, 54, 39, 252, 63, 178, 145, 127, 228, 36, 203, 192, 21, 250, 166, 113, 127, 11, 30, 28, 22, 206, 251, 255, 255, 4, 0, 0, 0, 128, 0, 0, 0, 60, 5, 0, 0, 51, 15, 0, 0, 229, 15, 0, 0, 96, 8, 0, 0, 61, 22, 0, 0, 188, 11, 0, 0, 204, 17, 0, 0, 8, 16, 0, 0, 120, 30, 0, 0, 252, 11, 0, 0, 43, 10, 0, 0, 170, 17, 0, 0, 192, 10, 0, 0, 38, 26, 0, 0, 111, 2, 0, 0, 205, 10, 0, 0, 24, 22, 0, 0, 2, 30, 0, 0, 46, 9, 0, 0, 162, 11, 0, 0, 223, 19, 0, 0, 232, 32, 0, 0, 114, 8, 0, 0, 187, 12, 0, 0, 5, 11, 0, 0, 96, 21, 0, 0, 154, 2, 0, 0, 105, 12, 0, 0, 34, 16, 0, 0, 74, 16, 0, 0, 135, 26, 0, 0, 29, 22, 0, 0, 90, 252, 255, 255, 4, 0, 0, 0, 0, 2, 0, 0, 209, 41, 244, 218, 88, 188, 90, 73, 214, 193, 26, 14, 7, 60, 58, 241, 225, 24, 127, 72, 124, 52, 150, 197, 74, 48, 42, 18, 107, 40, 9, 112, 43, 89, 18, 188, 224, 36, 32, 37, 41, 213, 232, 34, 205, 59, 236, 226, 243, 22, 68, 88, 240, 127, 3, 243, 175, 59, 87, 224, 1, 43, 2, 216, 211, 68, 219, 91, 245, 206, 160, 34, 99, 245, 27, 14, 103, 225, 7, 124, 98, 43, 229, 16, 39, 0, 209, 115, 253, 236, 139, 225, 127, 196, 79, 19, 177, 242, 89, 230, 46, 188, 89, 127, 74, 203, 12, 10, 248, 25, 37, 231, 27, 86, 54, 65, 43, 35, 37, 204, 15, 238, 29, 60, 241, 19, 0, 13, 58, 249, 4, 62, 238, 73, 190, 241, 42, 127, 21, 6, 253, 218, 12, 67, 43, 37, 181, 239, 21, 21, 47, 80, 27, 12, 240, 13, 3, 254, 19, 2, 155, 84, 0, 193, 246, 1, 30, 226, 195, 29, 6, 186, 232, 203, 44, 6, 192, 19, 251, 150, 57, 237, 152, 17, 3, 82, 220, 114, 127, 53, 233, 8, 204, 2, 104, 127, 228, 147, 55, 23, 57, 82, 99, 236, 254, 214, 23, 83, 28, 24, 236, 212, 28, 10, 204, 103, 60, 202, 197, 40, 120, 41, 30, 22, 8, 74, 234, 25, 206, 245, 254, 228, 50, 100, 13, 6, 3, 129, 202, 99, 24, 204, 10, 200, 220, 37, 19, 33, 240, 180, 226, 21, 54, 15, 65, 202, 59, 80, 52, 251, 199, 51, 114, 69, 239, 18, 25, 107, 217, 30, 127, 243, 156, 242, 23, 27, 195, 86, 70, 185, 220, 71, 229, 202, 89, 219, 221, 238, 196, 129, 71, 250, 34, 5, 235, 64, 6, 190, 3, 254, 62, 51, 4, 245, 3, 27, 176, 68, 116, 202, 36, 19, 76, 13, 234, 98, 203, 90, 44, 92, 11, 25, 42, 34, 8, 96, 42, 237, 17, 39, 17, 39, 203, 38, 129, 251, 214, 253, 221, 25, 240, 252, 72, 18, 9, 23, 31, 6, 215, 204, 249, 255, 49, 183, 232, 2, 101, 108, 176, 20, 16, 190, 210, 193, 33, 98, 7, 224, 93, 61, 230, 0, 69, 27, 127, 41, 74, 50, 84, 255, 220, 27, 33, 95, 37, 171, 19, 18, 110, 127, 252, 26, 45, 188, 42, 255, 94, 124, 196, 217, 55, 8, 161, 254, 89, 164, 75, 228, 18, 69, 44, 13, 147, 65, 19, 85, 15, 186, 14, 96, 252, 240, 241, 1, 22, 45, 21, 206, 33, 243, 127, 33, 243, 252, 204, 245, 18, 232, 224, 77, 40, 3, 240, 245, 11, 55, 9, 31, 248, 114, 248, 242, 249, 91, 33, 71, 44, 205, 129, 90, 247, 50, 243, 192, 228, 92, 90, 22, 213, 72, 61, 251, 182, 21, 41, 217, 118, 191, 227, 15, 202, 11, 19, 229, 28, 234, 127, 71, 0, 186, 45, 56, 217, 236, 251, 244, 6, 17, 76, 49, 33, 21, 225, 5, 230, 0, 61, 225, 74, 2, 5, 232, 102, 254, 255, 255, 4, 0, 0, 0, 64, 0, 0, 0, 26, 6, 0, 0, 233, 0, 0, 0, 152, 6, 0, 0, 221, 5, 0, 0, 38, 5, 0, 0, 38, 255, 255, 255, 146, 6, 0, 0, 70, 2, 0, 0, 82, 4, 0, 0, 35, 6, 0, 0, 0, 0, 0, 0, 233, 8, 0, 0, 188, 7, 0, 0, 21, 7, 0, 0, 214, 3, 0, 0, 62, 255, 255, 255, 178, 254, 255, 255, 4, 0, 0, 0, 128, 0, 0, 0, 16, 144, 35, 20, 27, 79, 59, 129, 202, 87, 135, 37, 54, 88, 159, 172, 52, 58, 129, 28, 182, 4, 247, 241, 23, 26, 235, 1, 18, 239, 189, 37, 129, 237, 34, 246, 14, 162, 42, 43, 231, 243, 213, 212, 148, 27, 1, 219, 21, 154, 234, 207, 46, 251, 82, 222, 64, 234, 90, 129, 198, 34, 156, 55, 109, 57, 53, 107, 143, 8, 2, 111, 67, 171, 196, 185, 213, 156, 87, 127, 255, 30, 243, 215, 42, 159, 156, 75, 72, 129, 236, 9, 237, 241, 32, 155, 252, 30, 42, 129, 60, 85, 25, 48, 180, 218, 223, 22, 207, 16, 183, 6, 195, 31, 3, 1, 246, 18, 208, 129, 249, 4, 58, 31, 50, 166, 29, 248, 62, 255, 255, 255, 4, 0, 0, 0, 32, 0, 0, 0, 177, 0, 0, 0, 155, 255, 255, 255, 183, 255, 255, 255, 227, 255, 255, 255, 99, 0, 0, 0, 248, 0, 0, 0, 166, 255, 255, 255, 72, 255, 255, 255, 56, 255, 255, 255, 60, 255, 255, 255, 15, 0, 0, 0, 77, 76, 73, 82, 32, 67, 111, 110, 118, 101, 114, 116, 101, 100, 46, 0, 1, 0, 0, 0, 20, 0, 0, 0, 0, 0, 14, 0, 24, 0, 20, 0, 16, 0, 12, 0, 8, 0, 4, 0, 14, 0, 0, 0, 20, 0, 0, 0, 28, 0, 0, 0, 40, 1, 0, 0, 44, 1, 0, 0, 48, 1, 0, 0, 4, 0, 0, 0, 109, 97, 105, 110, 0, 0, 0, 0, 4, 0, 0, 0, 208, 0, 0, 0, 136, 0, 0, 0, 80, 0, 0, 0, 20, 0, 0, 0, 0, 0, 14, 0, 26, 0, 20, 0, 16, 0, 12, 0, 11, 0, 4, 0, 14, 0, 0, 0, 28, 0, 0, 0, 0, 0, 0, 9, 28, 0, 0, 0, 32, 0, 0, 0, 1, 0, 0, 0, 0, 0, 6, 0, 8, 0, 4, 0, 6, 0, 0, 0, 0, 0, 128, 63, 1, 0, 0, 0, 10, 0, 0, 0, 1, 0, 0, 0, 9, 0, 0, 0, 150, 255, 255, 255, 20, 0, 0, 0, 0, 0, 0, 8, 16, 0, 0, 0, 20, 0, 0, 0, 4, 0, 4, 0, 4, 0, 0, 0, 1, 0, 0, 0, 9, 0, 0, 0, 3, 0, 0, 0, 8, 0, 0, 0, 2, 0, 0, 0, 1, 0, 0, 0, 202, 255, 255, 255, 16, 0, 0, 0, 0, 0, 0, 8, 16, 0, 0, 0, 20, 0, 0, 0, 186, 255, 255, 255, 0, 0, 0, 1, 1, 0, 0, 0, 8, 0, 0, 0, 3, 0, 0, 0, 7, 0, 0, 0, 4, 0, 0, 0, 3, 0, 0, 0, 0, 0, 14, 0, 22, 0, 0, 0, 16, 0, 12, 0, 11, 0, 4, 0, 14, 0, 0, 0, 24, 0, 0, 0, 0, 0, 0, 8, 24, 0, 0, 0, 28, 0, 0, 0, 0, 0, 6, 0, 8, 0, 7, 0, 6, 0, 0, 0, 0, 0, 0, 1, 1, 0, 0, 0, 7, 0, 0, 0, 3, 0, 0, 0, 0, 0, 0, 0, 6, 0, 0, 0, 5, 0, 0, 0, 1, 0, 0, 0, 10, 0, 0, 0, 1, 0, 0, 0, 0, 0, 0, 0, 11, 0, 0, 0, 16, 10, 0, 0, 64, 9, 0, 0, 108, 8, 0, 0, 88, 7, 0, 0, 60, 6, 0, 0, 104, 4, 0, 0, 140, 2, 0, 0, 216, 1, 0, 0, 28, 1, 0, 0, 128, 0, 0, 0, 4, 0, 0, 0, 50, 246, 255, 255, 0, 0, 0, 1, 24, 0, 0, 0, 32, 0, 0, 0, 60, 0, 0, 0, 11, 0, 0, 0, 0, 0, 0, 9, 80, 0, 0, 0, 2, 0, 0, 0, 255, 255, 255, 255, 8, 0, 0, 0, 28, 246, 255, 255, 8, 0, 0, 0, 16, 0, 0, 0, 1, 0, 0, 0, 128, 255, 255, 255, 255, 255, 255, 255, 1, 0, 0, 0, 0, 0, 128, 59, 27, 0, 0, 0, 83, 116, 97, 116, 101, 102, 117, 108, 80, 97, 114, 116, 105, 116, 105, 111, 110, 101, 100, 67, 97, 108, 108, 95, 49, 58, 48, 0, 2, 0, 0, 0, 1, 0, 0, 0, 8, 0, 0, 0, 170, 246, 255, 255, 0, 0, 0, 1, 24, 0, 0, 0, 32, 0, 0, 0, 60, 0, 0, 0, 10, 0, 0, 0, 0, 0, 0, 9, 112, 0, 0, 0, 2, 0, 0, 0, 255, 255, 255, 255, 8, 0, 0, 0, 148, 246, 255, 255, 8, 0, 0, 0, 16, 0, 0, 0, 1, 0, 0, 0, 34, 0, 0, 0, 0, 0, 0, 0, 1, 0, 0, 0, 28, 24, 215, 62, 56, 0, 0, 0, 115, 101, 113, 117, 101, 110, 116, 105, 97, 108, 95, 49, 47, 100, 101, 110, 115, 101, 95, 50, 95, 49, 47, 77, 97, 116, 77, 117, 108, 59, 115, 101, 113, 117, 101, 110, 116, 105, 97, 108, 95, 49, 47, 100, 101, 110, 115, 101, 95, 50, 95, 49, 47, 65, 100, 100, 0, 0, 0, 0, 2, 0, 0, 0, 1, 0, 0, 0, 8, 0, 0, 0, 66, 247, 255, 255, 0, 0, 0, 1, 24, 0, 0, 0, 32, 0, 0, 0, 64, 0, 0, 0, 9, 0, 0, 0, 0, 0, 0, 9, 144, 0, 0, 0, 2, 0, 0, 0, 255, 255, 255, 255, 16, 0, 0, 0, 44, 247, 255, 255, 8, 0, 0, 0, 20, 0, 0, 0, 1, 0, 0, 0, 128, 255, 255, 255, 255, 255, 255, 255, 0, 0, 0, 0, 1, 0, 0, 0, 130, 138, 136, 61, 84, 0, 0, 0, 115, 101, 113, 117, 101, 110, 116, 105, 97, 108, 95, 49, 47, 100, 101, 110, 115, 101, 95, 49, 95, 50, 47, 77, 97, 116, 77, 117, 108, 59, 115, 101, 113, 117, 101, 110, 116, 105, 97, 108, 95, 49, 47, 100, 101, 110, 115, 101, 95, 49, 95, 50, 47, 82, 101, 108, 117, 59, 115, 101, 113, 117, 101, 110, 116, 105, 97, 108, 95, 49, 47, 100, 101, 110, 115, 101, 95, 49, 95, 50, 47, 65, 100, 100, 0, 0, 0, 0, 2, 0, 0, 0, 1, 0, 0, 0, 16, 0, 0, 0, 250, 247, 255, 255, 0, 0, 0, 1, 24, 0, 0, 0, 32, 0, 0, 0, 64, 0, 0, 0, 8, 0, 0, 0, 0, 0, 0, 9, 136, 0, 0, 0, 2, 0, 0, 0, 255, 255, 255, 255, 32, 0, 0, 0, 228, 247, 255, 255, 8, 0, 0, 0, 20, 0, 0, 0, 1, 0, 0, 0, 128, 255, 255, 255, 255, 255, 255, 255, 0, 0, 0, 0, 1, 0, 0, 0, 147, 14, 164, 60, 78, 0, 0, 0, 115, 101, 113, 117, 101, 110, 116, 105, 97, 108, 95, 49, 47, 100, 101, 110, 115, 101, 95, 49, 47, 77, 97, 116, 77, 117, 108, 59, 115, 101, 113, 117, 101, 110, 116, 105, 97, 108, 95, 49, 47, 100, 101, 110, 115, 101, 95, 49, 47, 82, 101, 108, 117, 59, 115, 101, 113, 117, 101, 110, 116, 105, 97, 108, 95, 49, 47, 100, 101, 110, 115, 101, 95, 49, 47, 65, 100, 100, 0, 0, 2, 0, 0, 0, 1, 0, 0, 0, 32, 0, 0, 0, 118, 249, 255, 255, 0, 0, 0, 1, 20, 0, 0, 0, 168, 1, 0, 0, 7, 0, 0, 0, 0, 0, 0, 9, 180, 1, 0, 0, 132, 248, 255, 255, 8, 0, 0, 0, 12, 1, 0, 0, 32, 0, 0, 0, 0, 0, 0, 0, 0, 0, 0, 0, 0, 0, 0, 0, 0, 0, 0, 0, 0, 0, 0, 0, 0, 0, 0, 0, 0, 0, 0, 0, 0, 0, 0, 0, 0, 0, 0, 0, 0, 0, 0, 0, 0, 0, 0, 0, 0, 0, 0, 0, 0, 0, 0, 0, 0, 0, 0, 0, 0, 0, 0, 0, 0, 0, 0, 0, 0, 0, 0, 0, 0, 0, 0, 0, 0, 0, 0, 0, 0, 0, 0, 0, 0, 0, 0, 0, 0, 0, 0, 0, 0, 0, 0, 0, 0, 0, 0, 0, 0, 0, 0, 0, 0, 0, 0, 0, 0, 0, 0, 0, 0, 0, 0, 0, 0, 0, 0, 0, 0, 0, 0, 0, 0, 0, 0, 0, 0, 0, 0, 0, 0, 0, 0, 0, 0, 0, 0, 0, 0, 0, 0, 0, 0, 0, 0, 0, 0, 0, 0, 0, 0, 0, 0, 0, 0, 0, 0, 0, 0, 0, 0, 0, 0, 0, 0, 0, 0, 0, 0, 0, 0, 0, 0, 0, 0, 0, 0, 0, 0, 0, 0, 0, 0, 0, 0, 0, 0, 0, 0, 0, 0, 0, 0, 0, 0, 0, 0, 0, 0, 0, 0, 0, 0, 0, 0, 0, 0, 0, 0, 0, 0, 0, 0, 0, 0, 0, 0, 0, 0, 0, 0, 0, 0, 0, 0, 0, 0, 0, 0, 0, 0, 0, 0, 0, 0, 0, 0, 0, 0, 0, 0, 0, 0, 0, 0, 0, 0, 0, 0, 0, 0, 0, 0, 0, 0, 0, 0, 0, 0, 0, 0, 0, 32, 0, 0, 0, 53, 90, 227, 59, 119, 111, 220, 59, 134, 134, 25, 60, 203, 20, 239, 59, 223, 185, 162, 59, 31, 169, 55, 60, 237, 208, 248, 59, 22, 35, 188, 59, 163, 0, 220, 59, 8, 247, 62, 60, 48, 81, 181, 59, 128, 167, 176, 59, 25, 94, 181, 59, 201, 140, 17, 60, 232, 74, 92, 60, 108, 88, 66, 60, 122, 176, 155, 59, 77, 17, 164, 59, 170, 242, 238, 59, 79, 240, 180, 59, 47, 70, 189, 59, 208, 247, 166, 59, 214, 160, 59, 60, 25, 3, 234, 59, 234, 217, 233, 59, 209, 0, 226, 59, 141, 124, 218, 59, 107, 186, 219, 59, 162, 20, 20, 60, 31, 218, 194, 59, 35, 13, 139, 59, 195, 65, 192, 59, 18, 0, 0, 0, 116, 102, 108, 46, 112, 115, 101, 117, 100, 111, 95, 113, 99, 111, 110, 115, 116, 53, 0, 0, 2, 0, 0, 0, 32, 0, 0, 0, 9, 0, 0, 0, 78, 251, 255, 255, 0, 0, 0, 1, 20, 0, 0, 0, 164, 1, 0, 0, 6, 0, 0, 0, 0, 0, 0, 2, 176, 1, 0, 0, 92, 250, 255, 255, 8, 0, 0, 0, 8, 1, 0, 0, 32, 0, 0, 0, 0, 0, 0, 0, 0, 0, 0, 0, 0, 0, 0, 0, 0, 0, 0, 0, 0, 0, 0, 0, 0, 0, 0, 0, 0, 0, 0, 0, 0, 0, 0, 0, 0, 0, 0, 0, 0, 0, 0, 0, 0, 0, 0, 0, 0, 0, 0, 0, 0, 0, 0, 0, 0, 0, 0, 0, 0, 0, 0, 0, 0, 0, 0, 0, 0, 0, 0, 0, 0, 0, 0, 0, 0, 0, 0, 0, 0, 0, 0, 0, 0, 0, 0, 0, 0, 0, 0, 0, 0, 0, 0, 0, 0, 0, 0, 0, 0, 0, 0, 0, 0, 0, 0, 0, 0, 0, 0, 0, 0, 0, 0, 0, 0, 0, 0, 0, 0, 0, 0, 0, 0, 0, 0, 0, 0, 0, 0, 0, 0, 0, 0, 0, 0, 0, 0, 0, 0, 0, 0, 0, 0, 0, 0, 0, 0, 0, 0, 0, 0, 0, 0, 0, 0, 0, 0, 0, 0, 0, 0, 0, 0, 0, 0, 0, 0, 0, 0, 0, 0, 0, 0, 0, 0, 0, 0, 0, 0, 0, 0, 0, 0, 0, 0, 0, 0, 0, 0, 0, 0, 0, 0, 0, 0, 0, 0, 0, 0, 0, 0, 0, 0, 0, 0, 0, 0, 0, 0, 0, 0, 0, 0, 0, 0, 0, 0, 0, 0, 0, 0, 0, 0, 0, 0, 0, 0, 0, 0, 0, 0, 0, 0, 0, 0, 0, 0, 0, 0, 0, 0, 0, 0, 0, 0, 0, 0, 0, 0, 0, 0, 0, 0, 0, 0, 0, 0, 0, 32, 0, 0, 0, 115, 144, 194, 56, 20, 165, 188, 56, 108, 98, 3, 57, 2, 154, 204, 56, 23, 66, 139, 56, 114, 44, 29, 57, 188, 238, 212, 56, 36, 1, 161, 56, 60, 70, 188, 56, 174, 108, 35, 57, 8, 43, 155, 56, 126, 45, 151, 56, 20, 54, 155, 56, 71, 30, 249, 56, 203, 133, 60, 57, 68, 81, 38, 57, 125, 60, 133, 56, 254, 103, 140, 56, 205, 124, 204, 56, 32, 216, 154, 56, 66, 250, 161, 56, 107, 227, 142, 56, 173, 145, 32, 57, 119, 67, 200, 56, 56, 32, 200, 56, 222, 104, 193, 56, 30, 250, 186, 56, 36, 10, 188, 56, 29, 115, 253, 56, 67, 192, 166, 56, 214, 254, 109, 56, 183, 135, 164, 56, 18, 0, 0, 0, 116, 102, 108, 46, 112, 115, 101, 117, 100, 111, 95, 113, 99, 111, 110, 115, 116, 52, 0, 0, 1, 0, 0, 0, 32, 0, 0, 0, 30, 253, 255, 255, 0, 0, 0, 1, 20, 0, 0, 0, 232, 0, 0, 0, 5, 0, 0, 0, 0, 0, 0, 9, 244, 0, 0, 0, 44, 252, 255, 255, 8, 0, 0, 0, 140, 0, 0, 0, 16, 0, 0, 0, 0, 0, 0, 0, 0, 0, 0, 0, 0, 0, 0, 0, 0, 0, 0, 0, 0, 0, 0, 0, 0, 0, 0, 0, 0, 0, 0, 0, 0, 0, 0, 0, 0, 0, 0, 0, 0, 0, 0, 0, 0, 0, 0, 0, 0, 0, 0, 0, 0, 0, 0, 0, 0, 0, 0, 0, 0, 0, 0, 0, 0, 0, 0, 0, 0, 0, 0, 0, 0, 0, 0, 0, 0, 0, 0, 0, 0, 0, 0, 0, 0, 0, 0, 0, 0, 0, 0, 0, 0, 0, 0, 0, 0, 0, 0, 0, 0, 0, 0, 0, 0, 0, 0, 0, 0, 0, 0, 0, 0, 0, 0, 0, 0, 0, 0, 0, 0, 0, 0, 0, 0, 0, 0, 0, 0, 0, 0, 0, 0, 0, 0, 0, 16, 0, 0, 0, 48, 240, 7, 60, 234, 195, 242, 59, 59, 251, 203, 59, 76, 214, 1, 60, 46, 74, 37, 60, 183, 184, 176, 59, 68, 64, 237, 59, 205, 240, 51, 60, 204, 86, 1, 60, 59, 219, 254, 59, 28, 143, 50, 60, 169, 154, 200, 59, 44, 153, 4, 60, 161, 131, 18, 60, 84, 93, 15, 60, 172, 40, 16, 60, 18, 0, 0, 0, 116, 102, 108, 46, 112, 115, 101, 117, 100, 111, 95, 113, 99, 111, 110, 115, 116, 51, 0, 0, 2, 0, 0, 0, 16, 0, 0, 0, 32, 0, 0, 0, 54, 254, 255, 255, 0, 0, 0, 1, 20, 0, 0, 0, 228, 0, 0, 0, 4, 0, 0, 0, 0, 0, 0, 2, 240, 0, 0, 0, 68, 253, 255, 255, 8, 0, 0, 0, 136, 0, 0, 0, 16, 0, 0, 0, 0, 0, 0, 0, 0, 0, 0, 0, 0, 0, 0, 0, 0, 0, 0, 0, 0, 0, 0, 0, 0, 0, 0, 0, 0, 0, 0, 0, 0, 0, 0, 0, 0, 0, 0, 0, 0, 0, 0, 0, 0, 0, 0, 0, 0, 0, 0, 0, 0, 0, 0, 0, 0, 0, 0, 0, 0, 0, 0, 0, 0, 0, 0, 0, 0, 0, 0, 0, 0, 0, 0, 0, 0, 0, 0, 0, 0, 0, 0, 0, 0, 0, 0, 0, 0, 0, 0, 0, 0, 0, 0, 0, 0, 0, 0, 0, 0, 0, 0, 0, 0, 0, 0, 0, 0, 0, 0, 0, 0, 0, 0, 0, 0, 0, 0, 0, 0, 0, 0, 0, 0, 0, 0, 0, 0, 0, 0, 0, 16, 0, 0, 0, 56, 59, 46, 57, 84, 147, 27, 57, 143, 184, 2, 57, 90, 105, 38, 57, 221, 217, 83, 57, 202, 128, 226, 56, 173, 10, 24, 57, 4, 161, 102, 57, 239, 197, 37, 57, 244, 82, 35, 57, 177, 219, 100, 57, 128, 142, 0, 57, 89, 243, 41, 57, 85, 201, 59, 57, 230, 191, 55, 57, 134, 196, 56, 57, 18, 0, 0, 0, 116, 102, 108, 46, 112, 115, 101, 117, 100, 111, 95, 113, 99, 111, 110, 115, 116, 50, 0, 0, 1, 0, 0, 0, 16, 0, 0, 0, 70, 255, 255, 255, 0, 0, 0, 1, 20, 0, 0, 0, 136, 0, 0, 0, 3, 0, 0, 0, 0, 0, 0, 9, 148, 0, 0, 0, 84, 254, 255, 255, 8, 0, 0, 0, 76, 0, 0, 0, 8, 0, 0, 0, 0, 0, 0, 0, 0, 0, 0, 0, 0, 0, 0, 0, 0, 0, 0, 0, 0, 0, 0, 0, 0, 0, 0, 0, 0, 0, 0, 0, 0, 0, 0, 0, 0, 0, 0, 0, 0, 0, 0, 0, 0, 0, 0, 0, 0, 0, 0, 0, 0, 0, 0, 0, 0, 0, 0, 0, 0, 0, 0, 0, 0, 0, 0, 0, 0, 0, 0, 0, 8, 0, 0, 0, 251, 157, 1, 60, 16, 211, 95, 60, 135, 94, 151, 60, 33, 208, 32, 60, 230, 255, 11, 60, 144, 253, 66, 60, 141, 46, 48, 60, 49, 144, 129, 60, 18, 0, 0, 0, 116, 102, 108, 46, 112, 115, 101, 117, 100, 111, 95, 113, 99, 111, 110, 115, 116, 49, 0, 0, 2, 0, 0, 0, 8, 0, 0, 0, 16, 0, 0, 0, 0, 0, 22, 0, 28, 0, 24, 0, 23, 0, 16, 0, 12, 0, 8, 0, 0, 0, 0, 0, 0, 0, 7, 0, 22, 0, 0, 0, 0, 0, 0, 1, 20, 0, 0, 0, 136, 0, 0, 0, 2, 0, 0, 0, 0, 0, 0, 2, 148, 0, 0, 0, 36, 255, 255, 255, 8, 0, 0, 0, 76, 0, 0, 0, 8, 0, 0, 0, 0, 0, 0, 0, 0, 0, 0, 0, 0, 0, 0, 0, 0, 0, 0, 0, 0, 0, 0, 0, 0, 0, 0, 0, 0, 0, 0, 0, 0, 0, 0, 0, 0, 0, 0, 0, 0, 0, 0, 0, 0, 0, 0, 0, 0, 0, 0, 0, 0, 0, 0, 0, 0, 0, 0, 0, 0, 0, 0, 0, 0, 0, 0, 0, 0, 0, 0, 0, 8, 0, 0, 0, 29, 68, 10, 58, 116, 194, 110, 58, 59, 120, 161, 58, 39, 139, 43, 58, 98, 87, 21, 58, 104, 0, 80, 58, 27, 240, 59, 58, 103, 53, 138, 58, 17, 0, 0, 0, 116, 102, 108, 46, 112, 115, 101, 117, 100, 111, 95, 113, 99, 111, 110, 115, 116, 0, 0, 0, 1, 0, 0, 0, 8, 0, 0, 0, 0, 0, 22, 0, 32, 0, 28, 0, 27, 0, 20, 0, 16, 0, 12, 0, 0, 0, 0, 0, 8, 0, 7, 0, 22, 0, 0, 0, 0, 0, 0, 1, 24, 0, 0, 0, 44, 0, 0, 0, 72, 0, 0, 0, 1, 0, 0, 0, 0, 0, 0, 9, 96, 0, 0, 0, 2, 0, 0, 0, 255, 255, 255, 255, 9, 0, 0, 0, 12, 0, 12, 0, 0, 0, 0, 0, 8, 0, 4, 0, 12, 0, 0, 0, 8, 0, 0, 0, 16, 0, 0, 0, 1, 0, 0, 0, 254, 255, 255, 255, 255, 255, 255, 255, 1, 0, 0, 0, 149, 20, 91, 60, 30, 0, 0, 0, 115, 101, 114, 118, 105, 110, 103, 95, 100, 101, 102, 97, 117, 108, 116, 95, 107, 101, 114, 97, 115, 95, 116, 101, 110, 115, 111, 114, 58, 48, 0, 0, 2, 0, 0, 0, 1, 0, 0, 0, 9, 0, 0, 0, 2, 0, 0, 0, 36, 0, 0, 0, 4, 0, 0, 0, 240, 255, 255, 255, 25, 0, 0, 0, 2, 0, 0, 0, 0, 0, 0, 25, 12, 0, 16, 0, 15, 0, 0, 0, 8, 0, 4, 0, 12, 0, 0, 0, 9, 0, 0, 0, 4, 0, 0, 0, 0, 0, 0, 9};
const unsigned int model_tflite_len = 4936;
